const unsigned char state_model_tflite[] = {
  0x1c, 0x00, 0x00, 0x00, 0x54, 0x46, 0x4c, 0x33, 0x14, 0x00, 0x20, 0x00,
  0x1c, 0x00, 0x18, 0x00, 0x14, 0x00, 0x10, 0x00, 0x0c, 0x00, 0x00, 0x00,
  0x08, 0x00, 0x04, 0x00, 0x14, 0x00, 0x00, 0x00, 0x1c, 0x00, 0x00, 0x00,
  0x8c, 0x00, 0x00, 0x00, 0xe4, 0x00, 0x00, 0x00, 0x04, 0x06, 0x00, 0x00,
  0x14, 0x06, 0x00, 0x00, 0xc8, 0x0b, 0x00, 0x00, 0x03, 0x00, 0x00, 0x00,
  0x01, 0x00, 0x00, 0x00, 0x04, 0x00, 0x00, 0x00, 0xae, 0xf9, 0xff, 0xff,
  0x0c, 0x00, 0x00, 0x00, 0x1c, 0x00, 0x00, 0x00, 0x3c, 0x00, 0x00, 0x00,
  0x0f, 0x00, 0x00, 0x00, 0x73, 0x65, 0x72, 0x76, 0x69, 0x6e, 0x67, 0x5f,
  0x64, 0x65, 0x66, 0x61, 0x75, 0x6c, 0x74, 0x00, 0x01, 0x00, 0x00, 0x00,
  0x04, 0x00, 0x00, 0x00, 0x90, 0xff, 0xff, 0xff, 0x0a, 0x00, 0x00, 0x00,
  0x04, 0x00, 0x00, 0x00, 0x08, 0x00, 0x00, 0x00, 0x64, 0x65, 0x6e, 0x73,
  0x65, 0x5f, 0x37, 0x37, 0x00, 0x00, 0x00, 0x00, 0x01, 0x00, 0x00, 0x00,
  0x04, 0x00, 0x00, 0x00, 0x82, 0xfa, 0xff, 0xff, 0x04, 0x00, 0x00, 0x00,
  0x0e, 0x00, 0x00, 0x00, 0x64, 0x65, 0x6e, 0x73, 0x65, 0x5f, 0x37, 0x35,
  0x5f, 0x69, 0x6e, 0x70, 0x75, 0x74, 0x00, 0x00, 0x02, 0x00, 0x00, 0x00,
  0x34, 0x00, 0x00, 0x00, 0x04, 0x00, 0x00, 0x00, 0xdc, 0xff, 0xff, 0xff,
  0x0d, 0x00, 0x00, 0x00, 0x04, 0x00, 0x00, 0x00, 0x13, 0x00, 0x00, 0x00,
  0x43, 0x4f, 0x4e, 0x56, 0x45, 0x52, 0x53, 0x49, 0x4f, 0x4e, 0x5f, 0x4d,
  0x45, 0x54, 0x41, 0x44, 0x41, 0x54, 0x41, 0x00, 0x08, 0x00, 0x0c, 0x00,
  0x08, 0x00, 0x04, 0x00, 0x08, 0x00, 0x00, 0x00, 0x0c, 0x00, 0x00, 0x00,
  0x04, 0x00, 0x00, 0x00, 0x13, 0x00, 0x00, 0x00, 0x6d, 0x69, 0x6e, 0x5f,
  0x72, 0x75, 0x6e, 0x74, 0x69, 0x6d, 0x65, 0x5f, 0x76, 0x65, 0x72, 0x73,
  0x69, 0x6f, 0x6e, 0x00, 0x0e, 0x00, 0x00, 0x00, 0x1c, 0x05, 0x00, 0x00,
  0x14, 0x05, 0x00, 0x00, 0x00, 0x05, 0x00, 0x00, 0xc8, 0x04, 0x00, 0x00,
  0x78, 0x04, 0x00, 0x00, 0xe8, 0x02, 0x00, 0x00, 0xd8, 0x00, 0x00, 0x00,
  0xa8, 0x00, 0x00, 0x00, 0xa0, 0x00, 0x00, 0x00, 0x98, 0x00, 0x00, 0x00,
  0x90, 0x00, 0x00, 0x00, 0x88, 0x00, 0x00, 0x00, 0x68, 0x00, 0x00, 0x00,
  0x04, 0x00, 0x00, 0x00, 0x36, 0xfb, 0xff, 0xff, 0x04, 0x00, 0x00, 0x00,
  0x54, 0x00, 0x00, 0x00, 0x0c, 0x00, 0x00, 0x00, 0x08, 0x00, 0x0e, 0x00,
  0x08, 0x00, 0x04, 0x00, 0x08, 0x00, 0x00, 0x00, 0x10, 0x00, 0x00, 0x00,
  0x24, 0x00, 0x00, 0x00, 0x00, 0x00, 0x06, 0x00, 0x08, 0x00, 0x04, 0x00,
  0x06, 0x00, 0x00, 0x00, 0x04, 0x00, 0x00, 0x00, 0x00, 0x00, 0x00, 0x00,
  0x00, 0x00, 0x0a, 0x00, 0x10, 0x00, 0x0c, 0x00, 0x08, 0x00, 0x04, 0x00,
  0x0a, 0x00, 0x00, 0x00, 0x02, 0x00, 0x00, 0x00, 0x02, 0x00, 0x00, 0x00,
  0x04, 0x00, 0x00, 0x00, 0x05, 0x00, 0x00, 0x00, 0x32, 0x2e, 0x39, 0x2e,
  0x31, 0x00, 0x00, 0x00, 0x96, 0xfb, 0xff, 0xff, 0x04, 0x00, 0x00, 0x00,
  0x10, 0x00, 0x00, 0x00, 0x31, 0x2e, 0x31, 0x34, 0x2e, 0x30, 0x00, 0x00,
  0x00, 0x00, 0x00, 0x00, 0x00, 0x00, 0x00, 0x00, 0x04, 0xf6, 0xff, 0xff,
  0x08, 0xf6, 0xff, 0xff, 0x0c, 0xf6, 0xff, 0xff, 0x10, 0xf6, 0xff, 0xff,
  0xc2, 0xfb, 0xff, 0xff, 0x04, 0x00, 0x00, 0x00, 0x20, 0x00, 0x00, 0x00,
  0x50, 0xe5, 0x47, 0x40, 0x76, 0xf8, 0x35, 0x40, 0xe6, 0x38, 0x1e, 0x40,
  0x29, 0x86, 0x2f, 0x40, 0x2c, 0x2a, 0x36, 0xc0, 0x0c, 0xfc, 0x30, 0xc0,
  0x0a, 0xa8, 0x23, 0x40, 0x7b, 0x0c, 0x2d, 0x40, 0xee, 0xfb, 0xff, 0xff,
  0x04, 0x00, 0x00, 0x00, 0x00, 0x02, 0x00, 0x00, 0xf0, 0x16, 0x1e, 0x3e,
  0x83, 0xb2, 0x28, 0x40, 0x9c, 0x5f, 0xd1, 0x3e, 0x9e, 0x9f, 0xab, 0x3f,
  0x58, 0x6b, 0x16, 0xbe, 0x07, 0x73, 0x0d, 0x40, 0x40, 0x90, 0xc4, 0xbe,
  0x25, 0x74, 0x24, 0x3f, 0xe7, 0x0e, 0xa0, 0x40, 0x08, 0x52, 0xfe, 0xbe,
  0xc0, 0x9d, 0x45, 0x3e, 0x6c, 0xcd, 0x16, 0xbe, 0xe4, 0x13, 0xc4, 0x3e,
  0x35, 0x39, 0x2a, 0xbd, 0x38, 0x24, 0x0b, 0xbe, 0x68, 0x67, 0x1b, 0xbe,
  0xc0, 0x6d, 0x9f, 0x3e, 0xd5, 0x0d, 0x2b, 0x40, 0x3c, 0x76, 0xaa, 0xbe,
  0x88, 0xfc, 0x44, 0x40, 0x88, 0xf2, 0x1c, 0xbe, 0xa0, 0x91, 0x13, 0x40,
  0xc8, 0x28, 0x3b, 0xbe, 0x45, 0x46, 0xe3, 0x3e, 0x05, 0xe5, 0xb3, 0x40,
  0x74, 0x88, 0xc8, 0xbe, 0x5b, 0x5a, 0x3a, 0x3d, 0x96, 0x96, 0xf7, 0xbc,
  0x1c, 0xb1, 0xb9, 0x3e, 0xf0, 0x3c, 0x08, 0x3d, 0x08, 0xdd, 0xfe, 0xbe,
  0x1d, 0x6b, 0x09, 0x3d, 0xa0, 0x72, 0x16, 0x3d, 0x1e, 0xce, 0x39, 0x40,
  0xc4, 0x39, 0x9a, 0xbe, 0x6b, 0x21, 0x41, 0x40, 0x74, 0x7b, 0xa2, 0xbe,
  0x32, 0xae, 0x2e, 0x40, 0x94, 0xd1, 0x93, 0x3e, 0xbc, 0x64, 0x43, 0x3f,
  0x48, 0xc4, 0xa2, 0x40, 0xc0, 0x2b, 0x9f, 0xbc, 0x6d, 0xf9, 0x65, 0x3e,
  0x24, 0x60, 0xbe, 0xbd, 0xc8, 0xf0, 0x54, 0xbe, 0xd8, 0xfe, 0xa3, 0xbc,
  0x4c, 0xc3, 0x97, 0xbe, 0x8b, 0x79, 0x2a, 0xbe, 0x74, 0x1d, 0xaa, 0x3e,
  0xa2, 0xc8, 0x22, 0x40, 0x60, 0x2e, 0xd2, 0x3d, 0x80, 0x45, 0x3e, 0x40,
  0x18, 0x8c, 0x08, 0xbe, 0x36, 0xcf, 0x0b, 0x40, 0xb0, 0x89, 0x0f, 0x3e,
  0xfd, 0xe2, 0x31, 0x3f, 0xea, 0x1b, 0xa5, 0x40, 0x30, 0xcb, 0xef, 0xbe,
  0xeb, 0x14, 0x8f, 0xbe, 0xa1, 0x45, 0xe8, 0x3a, 0xa0, 0x1e, 0xc4, 0x3d,
  0x61, 0x7a, 0x41, 0x3e, 0xa4, 0xfe, 0xec, 0x3e, 0xdc, 0xad, 0xa5, 0x3d,
  0x00, 0xc6, 0x02, 0x3b, 0x56, 0x98, 0x92, 0xc0, 0xc0, 0x67, 0x3c, 0xbe,
  0x10, 0x85, 0x81, 0xc0, 0xb4, 0xd0, 0xb3, 0x3e, 0xe3, 0x72, 0x6c, 0xc0,
  0x30, 0x7b, 0x24, 0x3e, 0x3a, 0x89, 0x2d, 0xc0, 0xbc, 0x10, 0x4a, 0xc0,
  0xcc, 0x0e, 0xc1, 0xbe, 0xc7, 0x72, 0xfd, 0xbe, 0x93, 0x32, 0xf5, 0x3e,
  0x30, 0x4e, 0x87, 0x3d, 0xec, 0xac, 0x18, 0x3d, 0x40, 0x8e, 0xee, 0x3e,
  0x0e, 0xdc, 0x35, 0x3f, 0xc0, 0x83, 0xf6, 0x3e, 0xbb, 0x76, 0x90, 0xc0,
  0x9c, 0xf3, 0x98, 0x3e, 0x10, 0x06, 0x82, 0xc0, 0xc4, 0xc7, 0xad, 0xbe,
  0x7f, 0x6f, 0x75, 0xc0, 0xdc, 0x08, 0xc2, 0x3e, 0xc6, 0x9b, 0x29, 0xc0,
  0x78, 0x02, 0x3c, 0xc0, 0xf8, 0xab, 0xa2, 0x3e, 0xa5, 0x98, 0xda, 0x3e,
  0xae, 0x61, 0x2c, 0xbe, 0x48, 0x53, 0x3f, 0xbe, 0x19, 0xe2, 0x7f, 0x3e,
  0x18, 0xe1, 0xe3, 0x3e, 0x60, 0x53, 0x3c, 0x3f, 0xe8, 0x86, 0x99, 0x3e,
  0x40, 0x70, 0xe9, 0xbf, 0x48, 0xe1, 0xa4, 0xbe, 0xd5, 0x9b, 0xfe, 0x3f,
  0x5c, 0x81, 0xf1, 0x3e, 0xdc, 0x7d, 0x25, 0x40, 0xa8, 0x31, 0x69, 0xbe,
  0xe2, 0x00, 0x5b, 0x3f, 0x88, 0x93, 0x9e, 0x40, 0x38, 0x4d, 0x92, 0xbe,
  0x00, 0x8b, 0xde, 0xbb, 0x88, 0x53, 0x3b, 0xbf, 0x78, 0xe5, 0x8b, 0x3e,
  0x56, 0xea, 0x9e, 0xbf, 0xd0, 0xbd, 0xd0, 0xbe, 0x97, 0x58, 0x3e, 0xbf,
  0xe0, 0xfa, 0xde, 0xbe, 0x21, 0x3b, 0x3e, 0x40, 0x38, 0x22, 0x05, 0xbe,
  0x04, 0xae, 0x5e, 0x40, 0x60, 0x28, 0x14, 0x3e, 0xd2, 0x30, 0x27, 0x40,
  0xb0, 0x13, 0xbd, 0x3e, 0x1b, 0x84, 0x1c, 0x3f, 0x00, 0x7c, 0xa3, 0x40,
  0x60, 0x33, 0x42, 0x3e, 0x18, 0x0c, 0x0a, 0xbe, 0x7d, 0xbc, 0x18, 0xbe,
  0x00, 0xed, 0x76, 0x3c, 0xbc, 0xdb, 0x03, 0x3d, 0xc0, 0x51, 0x03, 0x3e,
  0xfb, 0xed, 0xed, 0xbd, 0xfa, 0xfd, 0xff, 0xff, 0x04, 0x00, 0x00, 0x00,
  0x80, 0x01, 0x00, 0x00, 0x94, 0xbe, 0x21, 0x3e, 0xfc, 0x6d, 0xd7, 0xbe,
  0xd6, 0x59, 0x0a, 0xbe, 0x98, 0x0a, 0x95, 0xbd, 0x8e, 0xab, 0xd6, 0xbe,
  0x42, 0x83, 0x40, 0xbe, 0x8e, 0xb6, 0xf0, 0x3e, 0xcb, 0x8a, 0xde, 0xbe,
  0x27, 0x4f, 0x96, 0xbf, 0xc4, 0x9b, 0x0b, 0x3f, 0xcb, 0x6e, 0xb6, 0xbe,
  0xb6, 0xce, 0xe3, 0x3e, 0x36, 0x7f, 0xfe, 0x3e, 0xdf, 0x69, 0x81, 0xbe,
  0xff, 0xbc, 0xf7, 0xbe, 0x88, 0x2e, 0x92, 0x3e, 0xac, 0x23, 0xf7, 0xbe,
  0x08, 0xcf, 0x5d, 0xbd, 0xf7, 0x4b, 0x3b, 0xbd, 0xc4, 0xc3, 0x6d, 0x3f,
  0xd0, 0x54, 0x9a, 0xbf, 0xb4, 0x7a, 0xcb, 0x3e, 0x9e, 0x33, 0x45, 0xbe,
  0x0d, 0xc6, 0x92, 0xbe, 0xf4, 0x14, 0x99, 0xbd, 0x9e, 0xa9, 0x01, 0xbe,
  0x98, 0x92, 0x9b, 0xbe, 0x28, 0x20, 0x8d, 0xbe, 0x2a, 0x42, 0x81, 0xbe,
  0xa5, 0x3a, 0x8b, 0xbe, 0x64, 0x2b, 0x84, 0xbf, 0xc0, 0x2e, 0x6e, 0xbe,
  0x28, 0x28, 0x85, 0x3f, 0x68, 0x04, 0x06, 0x3f, 0x10, 0x1b, 0x5e, 0xbe,
  0xa2, 0x43, 0x21, 0x3e, 0x60, 0x72, 0x40, 0x3e, 0x4a, 0x2c, 0x04, 0xbf,
  0x56, 0xa1, 0x9c, 0x3e, 0x6e, 0x3a, 0x62, 0xbe, 0xba, 0x67, 0x3d, 0xbe,
  0x98, 0x8c, 0x12, 0xbe, 0x2a, 0xbe, 0xa2, 0xbf, 0xb9, 0xe8, 0xc1, 0x3d,
  0xbd, 0x84, 0x97, 0x3d, 0x44, 0x6c, 0xb6, 0xbc, 0x28, 0x8b, 0x0c, 0x3f,
  0x8d, 0x2d, 0x79, 0x3e, 0x05, 0x15, 0x2c, 0xbf, 0x3a, 0xbc, 0x59, 0xbf,
  0x38, 0x19, 0x87, 0x3f, 0x5f, 0xee, 0x62, 0xbe, 0xa6, 0xa1, 0x27, 0x3d,
  0x92, 0x7e, 0x00, 0x3f, 0x08, 0x27, 0x99, 0x3e, 0xac, 0x06, 0xe4, 0xbd,
  0xe0, 0xb3, 0xaa, 0x3d, 0x54, 0x2c, 0xc3, 0xbe, 0xc0, 0x41, 0x7b, 0x3c,
  0x9e, 0xc3, 0xb0, 0xbe, 0x1c, 0x6b, 0x03, 0xbf, 0x1a, 0x52, 0xd5, 0xbe,
  0x3f, 0x29, 0x91, 0x3e, 0xaf, 0x13, 0xbc, 0x3e, 0x41, 0x2c, 0x8a, 0x3b,
  0x9a, 0x31, 0xe7, 0xbe, 0xbb, 0xc7, 0x29, 0x3f, 0x8e, 0xf1, 0xd3, 0xbe,
  0x3f, 0xf8, 0x27, 0xbe, 0x6b, 0xa8, 0xcb, 0x3d, 0xf7, 0xe1, 0x5b, 0xbd,
  0x1f, 0x0c, 0x18, 0x3e, 0x76, 0xf3, 0x01, 0xbf, 0x2a, 0x41, 0xce, 0xbe,
  0x58, 0x4a, 0x50, 0xbd, 0x00, 0xe6, 0xeb, 0x3c, 0x70, 0xfd, 0x79, 0xbd,
  0xa4, 0x2c, 0xae, 0xbd, 0x62, 0x7a, 0x54, 0x3f, 0x69, 0xc4, 0x88, 0xbe,
  0xd4, 0xd3, 0xd6, 0xbe, 0x77, 0x70, 0xf0, 0x3d, 0x83, 0xc0, 0x63, 0xbd,
  0xdd, 0x9a, 0x4f, 0x3d, 0x20, 0xf2, 0x0c, 0x3e, 0x52, 0x45, 0xa1, 0xbe,
  0x00, 0x47, 0x6a, 0x3b, 0x4a, 0xc3, 0x91, 0x3e, 0x68, 0xa9, 0xcc, 0xbd,
  0x1e, 0xa2, 0xa7, 0xbe, 0x5f, 0x76, 0x32, 0x3f, 0x41, 0x69, 0xf7, 0xbd,
  0x4a, 0x52, 0xf7, 0x3d, 0xbb, 0x07, 0x95, 0xbc, 0x71, 0x76, 0x64, 0xbe,
  0x76, 0xab, 0x0f, 0xbf, 0x86, 0xff, 0xff, 0xff, 0x04, 0x00, 0x00, 0x00,
  0x40, 0x00, 0x00, 0x00, 0x00, 0x00, 0x00, 0x00, 0x5c, 0x31, 0xb4, 0x3d,
  0x00, 0x00, 0x00, 0x00, 0x27, 0x38, 0x66, 0x3d, 0x00, 0x00, 0x00, 0x00,
  0xc6, 0xe7, 0x9a, 0xbc, 0x00, 0x00, 0x00, 0x00, 0xd7, 0x05, 0x8d, 0x3e,
  0x5d, 0x5d, 0xc8, 0x3d, 0x00, 0x00, 0x00, 0x00, 0x80, 0x8c, 0x91, 0xbd,
  0xdd, 0xb9, 0x9f, 0xbe, 0x00, 0x00, 0x00, 0x00, 0x77, 0x94, 0xae, 0xbe,
  0x00, 0x00, 0x00, 0x00, 0xab, 0xae, 0xd9, 0xbd, 0xd2, 0xff, 0xff, 0xff,
  0x04, 0x00, 0x00, 0x00, 0x20, 0x00, 0x00, 0x00, 0x02, 0x7e, 0xd7, 0x3a,
  0x88, 0xe8, 0x4f, 0xba, 0x68, 0x0d, 0x18, 0x39, 0x50, 0x9e, 0xc6, 0x3b,
  0xea, 0x50, 0x19, 0x3e, 0xef, 0x90, 0xd5, 0x3d, 0x62, 0x11, 0x10, 0xba,
  0xf1, 0x8f, 0x88, 0xbc, 0x00, 0x00, 0x06, 0x00, 0x08, 0x00, 0x04, 0x00,
  0x06, 0x00, 0x00, 0x00, 0x04, 0x00, 0x00, 0x00, 0x04, 0x00, 0x00, 0x00,
  0xf8, 0xb4, 0xac, 0xbf, 0x68, 0xfa, 0xff, 0xff, 0x6c, 0xfa, 0xff, 0xff,
  0x0f, 0x00, 0x00, 0x00, 0x4d, 0x4c, 0x49, 0x52, 0x20, 0x43, 0x6f, 0x6e,
  0x76, 0x65, 0x72, 0x74, 0x65, 0x64, 0x2e, 0x00, 0x01, 0x00, 0x00, 0x00,
  0x14, 0x00, 0x00, 0x00, 0x00, 0x00, 0x0e, 0x00, 0x18, 0x00, 0x14, 0x00,
  0x10, 0x00, 0x0c, 0x00, 0x08, 0x00, 0x04, 0x00, 0x0e, 0x00, 0x00, 0x00,
  0x14, 0x00, 0x00, 0x00, 0x1c, 0x00, 0x00, 0x00, 0x08, 0x01, 0x00, 0x00,
  0x0c, 0x01, 0x00, 0x00, 0x10, 0x01, 0x00, 0x00, 0x04, 0x00, 0x00, 0x00,
  0x6d, 0x61, 0x69, 0x6e, 0x00, 0x00, 0x00, 0x00, 0x04, 0x00, 0x00, 0x00,
  0xb0, 0x00, 0x00, 0x00, 0x68, 0x00, 0x00, 0x00, 0x34, 0x00, 0x00, 0x00,
  0x10, 0x00, 0x00, 0x00, 0x00, 0x00, 0x0a, 0x00, 0x10, 0x00, 0x0c, 0x00,
  0x08, 0x00, 0x04, 0x00, 0x0a, 0x00, 0x00, 0x00, 0x0c, 0x00, 0x00, 0x00,
  0x10, 0x00, 0x00, 0x00, 0x01, 0x00, 0x00, 0x00, 0x01, 0x00, 0x00, 0x00,
  0x0a, 0x00, 0x00, 0x00, 0x01, 0x00, 0x00, 0x00, 0x09, 0x00, 0x00, 0x00,
  0x9a, 0xff, 0xff, 0xff, 0x10, 0x00, 0x00, 0x00, 0x00, 0x00, 0x00, 0x08,
  0x0c, 0x00, 0x00, 0x00, 0x10, 0x00, 0x00, 0x00, 0x14, 0xfb, 0xff, 0xff,
  0x01, 0x00, 0x00, 0x00, 0x09, 0x00, 0x00, 0x00, 0x03, 0x00, 0x00, 0x00,
  0x08, 0x00, 0x00, 0x00, 0x06, 0x00, 0x00, 0x00, 0x01, 0x00, 0x00, 0x00,
  0xca, 0xff, 0xff, 0xff, 0x10, 0x00, 0x00, 0x00, 0x00, 0x00, 0x00, 0x08,
  0x10, 0x00, 0x00, 0x00, 0x14, 0x00, 0x00, 0x00, 0xba, 0xff, 0xff, 0xff,
  0x00, 0x00, 0x00, 0x01, 0x01, 0x00, 0x00, 0x00, 0x08, 0x00, 0x00, 0x00,
  0x03, 0x00, 0x00, 0x00, 0x07, 0x00, 0x00, 0x00, 0x05, 0x00, 0x00, 0x00,
  0x02, 0x00, 0x00, 0x00, 0x00, 0x00, 0x0e, 0x00, 0x16, 0x00, 0x00, 0x00,
  0x10, 0x00, 0x0c, 0x00, 0x0b, 0x00, 0x04, 0x00, 0x0e, 0x00, 0x00, 0x00,
  0x18, 0x00, 0x00, 0x00, 0x00, 0x00, 0x00, 0x08, 0x18, 0x00, 0x00, 0x00,
  0x1c, 0x00, 0x00, 0x00, 0x00, 0x00, 0x06, 0x00, 0x08, 0x00, 0x07, 0x00,
  0x06, 0x00, 0x00, 0x00, 0x00, 0x00, 0x00, 0x01, 0x01, 0x00, 0x00, 0x00,
  0x07, 0x00, 0x00, 0x00, 0x03, 0x00, 0x00, 0x00, 0x00, 0x00, 0x00, 0x00,
  0x04, 0x00, 0x00, 0x00, 0x03, 0x00, 0x00, 0x00, 0x01, 0x00, 0x00, 0x00,
  0x0a, 0x00, 0x00, 0x00, 0x01, 0x00, 0x00, 0x00, 0x00, 0x00, 0x00, 0x00,
  0x0b, 0x00, 0x00, 0x00, 0x18, 0x04, 0x00, 0x00, 0xac, 0x03, 0x00, 0x00,
  0x44, 0x03, 0x00, 0x00, 0xec, 0x02, 0x00, 0x00, 0xa0, 0x02, 0x00, 0x00,
  0x54, 0x02, 0x00, 0x00, 0x08, 0x02, 0x00, 0x00, 0x70, 0x01, 0x00, 0x00,
  0xd8, 0x00, 0x00, 0x00, 0x5c, 0x00, 0x00, 0x00, 0x04, 0x00, 0x00, 0x00,
  0x28, 0xfc, 0xff, 0xff, 0x14, 0x00, 0x00, 0x00, 0x1c, 0x00, 0x00, 0x00,
  0x1c, 0x00, 0x00, 0x00, 0x0b, 0x00, 0x00, 0x00, 0x34, 0x00, 0x00, 0x00,
  0x02, 0x00, 0x00, 0x00, 0xff, 0xff, 0xff, 0xff, 0x01, 0x00, 0x00, 0x00,
  0x14, 0xfc, 0xff, 0xff, 0x19, 0x00, 0x00, 0x00, 0x53, 0x74, 0x61, 0x74,
  0x65, 0x66, 0x75, 0x6c, 0x50, 0x61, 0x72, 0x74, 0x69, 0x74, 0x69, 0x6f,
  0x6e, 0x65, 0x64, 0x43, 0x61, 0x6c, 0x6c, 0x3a, 0x30, 0x00, 0x00, 0x00,
  0x02, 0x00, 0x00, 0x00, 0x01, 0x00, 0x00, 0x00, 0x01, 0x00, 0x00, 0x00,
  0x7c, 0xfc, 0xff, 0xff, 0x14, 0x00, 0x00, 0x00, 0x1c, 0x00, 0x00, 0x00,
  0x1c, 0x00, 0x00, 0x00, 0x0a, 0x00, 0x00, 0x00, 0x58, 0x00, 0x00, 0x00,
  0x02, 0x00, 0x00, 0x00, 0xff, 0xff, 0xff, 0xff, 0x01, 0x00, 0x00, 0x00,
  0x68, 0xfc, 0xff, 0xff, 0x3c, 0x00, 0x00, 0x00, 0x73, 0x65, 0x71, 0x75,
  0x65, 0x6e, 0x74, 0x69, 0x61, 0x6c, 0x5f, 0x32, 0x35, 0x2f, 0x64, 0x65,
  0x6e, 0x73, 0x65, 0x5f, 0x37, 0x37, 0x2f, 0x4d, 0x61, 0x74, 0x4d, 0x75,
  0x6c, 0x3b, 0x73, 0x65, 0x71, 0x75, 0x65, 0x6e, 0x74, 0x69, 0x61, 0x6c,
  0x5f, 0x32, 0x35, 0x2f, 0x64, 0x65, 0x6e, 0x73, 0x65, 0x5f, 0x37, 0x37,
  0x2f, 0x42, 0x69, 0x61, 0x73, 0x41, 0x64, 0x64, 0x00, 0x00, 0x00, 0x00,
  0x02, 0x00, 0x00, 0x00, 0x01, 0x00, 0x00, 0x00, 0x01, 0x00, 0x00, 0x00,
  0xf4, 0xfc, 0xff, 0xff, 0x14, 0x00, 0x00, 0x00, 0x1c, 0x00, 0x00, 0x00,
  0x1c, 0x00, 0x00, 0x00, 0x09, 0x00, 0x00, 0x00, 0x74, 0x00, 0x00, 0x00,
  0x02, 0x00, 0x00, 0x00, 0xff, 0xff, 0xff, 0xff, 0x08, 0x00, 0x00, 0x00,
  0xe0, 0xfc, 0xff, 0xff, 0x58, 0x00, 0x00, 0x00, 0x73, 0x65, 0x71, 0x75,
  0x65, 0x6e, 0x74, 0x69, 0x61, 0x6c, 0x5f, 0x32, 0x35, 0x2f, 0x64, 0x65,
  0x6e, 0x73, 0x65, 0x5f, 0x37, 0x36, 0x2f, 0x4d, 0x61, 0x74, 0x4d, 0x75,
  0x6c, 0x3b, 0x73, 0x65, 0x71, 0x75, 0x65, 0x6e, 0x74, 0x69, 0x61, 0x6c,
  0x5f, 0x32, 0x35, 0x2f, 0x64, 0x65, 0x6e, 0x73, 0x65, 0x5f, 0x37, 0x36,
  0x2f, 0x52, 0x65, 0x6c, 0x75, 0x3b, 0x73, 0x65, 0x71, 0x75, 0x65, 0x6e,
  0x74, 0x69, 0x61, 0x6c, 0x5f, 0x32, 0x35, 0x2f, 0x64, 0x65, 0x6e, 0x73,
  0x65, 0x5f, 0x37, 0x36, 0x2f, 0x42, 0x69, 0x61, 0x73, 0x41, 0x64, 0x64,
  0x00, 0x00, 0x00, 0x00, 0x02, 0x00, 0x00, 0x00, 0x01, 0x00, 0x00, 0x00,
  0x08, 0x00, 0x00, 0x00, 0x88, 0xfd, 0xff, 0xff, 0x14, 0x00, 0x00, 0x00,
  0x1c, 0x00, 0x00, 0x00, 0x1c, 0x00, 0x00, 0x00, 0x08, 0x00, 0x00, 0x00,
  0x74, 0x00, 0x00, 0x00, 0x02, 0x00, 0x00, 0x00, 0xff, 0xff, 0xff, 0xff,
  0x10, 0x00, 0x00, 0x00, 0x74, 0xfd, 0xff, 0xff, 0x58, 0x00, 0x00, 0x00,
  0x73, 0x65, 0x71, 0x75, 0x65, 0x6e, 0x74, 0x69, 0x61, 0x6c, 0x5f, 0x32,
  0x35, 0x2f, 0x64, 0x65, 0x6e, 0x73, 0x65, 0x5f, 0x37, 0x35, 0x2f, 0x4d,
  0x61, 0x74, 0x4d, 0x75, 0x6c, 0x3b, 0x73, 0x65, 0x71, 0x75, 0x65, 0x6e,
  0x74, 0x69, 0x61, 0x6c, 0x5f, 0x32, 0x35, 0x2f, 0x64, 0x65, 0x6e, 0x73,
  0x65, 0x5f, 0x37, 0x35, 0x2f, 0x52, 0x65, 0x6c, 0x75, 0x3b, 0x73, 0x65,
  0x71, 0x75, 0x65, 0x6e, 0x74, 0x69, 0x61, 0x6c, 0x5f, 0x32, 0x35, 0x2f,
  0x64, 0x65, 0x6e, 0x73, 0x65, 0x5f, 0x37, 0x35, 0x2f, 0x42, 0x69, 0x61,
  0x73, 0x41, 0x64, 0x64, 0x00, 0x00, 0x00, 0x00, 0x02, 0x00, 0x00, 0x00,
  0x01, 0x00, 0x00, 0x00, 0x10, 0x00, 0x00, 0x00, 0x7e, 0xfe, 0xff, 0xff,
  0x10, 0x00, 0x00, 0x00, 0x10, 0x00, 0x00, 0x00, 0x07, 0x00, 0x00, 0x00,
  0x2c, 0x00, 0x00, 0x00, 0xf8, 0xfd, 0xff, 0xff, 0x1d, 0x00, 0x00, 0x00,
  0x73, 0x65, 0x71, 0x75, 0x65, 0x6e, 0x74, 0x69, 0x61, 0x6c, 0x5f, 0x32,
  0x35, 0x2f, 0x64, 0x65, 0x6e, 0x73, 0x65, 0x5f, 0x37, 0x37, 0x2f, 0x4d,
  0x61, 0x74, 0x4d, 0x75, 0x6c, 0x00, 0x00, 0x00, 0x02, 0x00, 0x00, 0x00,
  0x01, 0x00, 0x00, 0x00, 0x08, 0x00, 0x00, 0x00, 0xc6, 0xfe, 0xff, 0xff,
  0x10, 0x00, 0x00, 0x00, 0x10, 0x00, 0x00, 0x00, 0x06, 0x00, 0x00, 0x00,
  0x2c, 0x00, 0x00, 0x00, 0x40, 0xfe, 0xff, 0xff, 0x1d, 0x00, 0x00, 0x00,
  0x73, 0x65, 0x71, 0x75, 0x65, 0x6e, 0x74, 0x69, 0x61, 0x6c, 0x5f, 0x32,
  0x35, 0x2f, 0x64, 0x65, 0x6e, 0x73, 0x65, 0x5f, 0x37, 0x36, 0x2f, 0x4d,
  0x61, 0x74, 0x4d, 0x75, 0x6c, 0x00, 0x00, 0x00, 0x02, 0x00, 0x00, 0x00,
  0x08, 0x00, 0x00, 0x00, 0x10, 0x00, 0x00, 0x00, 0x0e, 0xff, 0xff, 0xff,
  0x10, 0x00, 0x00, 0x00, 0x10, 0x00, 0x00, 0x00, 0x05, 0x00, 0x00, 0x00,
  0x2c, 0x00, 0x00, 0x00, 0x88, 0xfe, 0xff, 0xff, 0x1d, 0x00, 0x00, 0x00,
  0x73, 0x65, 0x71, 0x75, 0x65, 0x6e, 0x74, 0x69, 0x61, 0x6c, 0x5f, 0x32,
  0x35, 0x2f, 0x64, 0x65, 0x6e, 0x73, 0x65, 0x5f, 0x37, 0x35, 0x2f, 0x4d,
  0x61, 0x74, 0x4d, 0x75, 0x6c, 0x00, 0x00, 0x00, 0x02, 0x00, 0x00, 0x00,
  0x10, 0x00, 0x00, 0x00, 0x06, 0x00, 0x00, 0x00, 0x56, 0xff, 0xff, 0xff,
  0x10, 0x00, 0x00, 0x00, 0x10, 0x00, 0x00, 0x00, 0x04, 0x00, 0x00, 0x00,
  0x3c, 0x00, 0x00, 0x00, 0xd0, 0xfe, 0xff, 0xff, 0x2d, 0x00, 0x00, 0x00,
  0x73, 0x65, 0x71, 0x75, 0x65, 0x6e, 0x74, 0x69, 0x61, 0x6c, 0x5f, 0x32,
  0x35, 0x2f, 0x64, 0x65, 0x6e, 0x73, 0x65, 0x5f, 0x37, 0x35, 0x2f, 0x42,
  0x69, 0x61, 0x73, 0x41, 0x64, 0x64, 0x2f, 0x52, 0x65, 0x61, 0x64, 0x56,
  0x61, 0x72, 0x69, 0x61, 0x62, 0x6c, 0x65, 0x4f, 0x70, 0x00, 0x00, 0x00,
  0x01, 0x00, 0x00, 0x00, 0x10, 0x00, 0x00, 0x00, 0xaa, 0xff, 0xff, 0xff,
  0x10, 0x00, 0x00, 0x00, 0x10, 0x00, 0x00, 0x00, 0x03, 0x00, 0x00, 0x00,
  0x3c, 0x00, 0x00, 0x00, 0x24, 0xff, 0xff, 0xff, 0x2d, 0x00, 0x00, 0x00,
  0x73, 0x65, 0x71, 0x75, 0x65, 0x6e, 0x74, 0x69, 0x61, 0x6c, 0x5f, 0x32,
  0x35, 0x2f, 0x64, 0x65, 0x6e, 0x73, 0x65, 0x5f, 0x37, 0x36, 0x2f, 0x42,
  0x69, 0x61, 0x73, 0x41, 0x64, 0x64, 0x2f, 0x52, 0x65, 0x61, 0x64, 0x56,
  0x61, 0x72, 0x69, 0x61, 0x62, 0x6c, 0x65, 0x4f, 0x70, 0x00, 0x00, 0x00,
  0x01, 0x00, 0x00, 0x00, 0x08, 0x00, 0x00, 0x00, 0x00, 0x00, 0x0e, 0x00,
  0x14, 0x00, 0x10, 0x00, 0x00, 0x00, 0x0c, 0x00, 0x08, 0x00, 0x04, 0x00,
  0x0e, 0x00, 0x00, 0x00, 0x10, 0x00, 0x00, 0x00, 0x10, 0x00, 0x00, 0x00,
  0x02, 0x00, 0x00, 0x00, 0x3c, 0x00, 0x00, 0x00, 0x88, 0xff, 0xff, 0xff,
  0x2d, 0x00, 0x00, 0x00, 0x73, 0x65, 0x71, 0x75, 0x65, 0x6e, 0x74, 0x69,
  0x61, 0x6c, 0x5f, 0x32, 0x35, 0x2f, 0x64, 0x65, 0x6e, 0x73, 0x65, 0x5f,
  0x37, 0x37, 0x2f, 0x42, 0x69, 0x61, 0x73, 0x41, 0x64, 0x64, 0x2f, 0x52,
  0x65, 0x61, 0x64, 0x56, 0x61, 0x72, 0x69, 0x61, 0x62, 0x6c, 0x65, 0x4f,
  0x70, 0x00, 0x00, 0x00, 0x01, 0x00, 0x00, 0x00, 0x01, 0x00, 0x00, 0x00,
  0x14, 0x00, 0x18, 0x00, 0x14, 0x00, 0x00, 0x00, 0x10, 0x00, 0x0c, 0x00,
  0x08, 0x00, 0x00, 0x00, 0x00, 0x00, 0x04, 0x00, 0x14, 0x00, 0x00, 0x00,
  0x14, 0x00, 0x00, 0x00, 0x20, 0x00, 0x00, 0x00, 0x20, 0x00, 0x00, 0x00,
  0x01, 0x00, 0x00, 0x00, 0x40, 0x00, 0x00, 0x00, 0x02, 0x00, 0x00, 0x00,
  0xff, 0xff, 0xff, 0xff, 0x06, 0x00, 0x00, 0x00, 0x04, 0x00, 0x04, 0x00,
  0x04, 0x00, 0x00, 0x00, 0x20, 0x00, 0x00, 0x00, 0x73, 0x65, 0x72, 0x76,
  0x69, 0x6e, 0x67, 0x5f, 0x64, 0x65, 0x66, 0x61, 0x75, 0x6c, 0x74, 0x5f,
  0x64, 0x65, 0x6e, 0x73, 0x65, 0x5f, 0x37, 0x35, 0x5f, 0x69, 0x6e, 0x70,
  0x75, 0x74, 0x3a, 0x30, 0x00, 0x00, 0x00, 0x00, 0x02, 0x00, 0x00, 0x00,
  0x01, 0x00, 0x00, 0x00, 0x06, 0x00, 0x00, 0x00, 0x02, 0x00, 0x00, 0x00,
  0x20, 0x00, 0x00, 0x00, 0x04, 0x00, 0x00, 0x00, 0xf4, 0xff, 0xff, 0xff,
  0x0e, 0x00, 0x00, 0x00, 0x00, 0x00, 0x00, 0x0e, 0x0c, 0x00, 0x0c, 0x00,
  0x0b, 0x00, 0x00, 0x00, 0x00, 0x00, 0x04, 0x00, 0x0c, 0x00, 0x00, 0x00,
  0x09, 0x00, 0x00, 0x00, 0x00, 0x00, 0x00, 0x09
};
const unsigned int state_model_tflite_len = 3116;
